BDF66A1C
BBBCDDC7
3E46F10F
BC2711D6
BDA1A174
3DADDE17
BCE84BB5
3CA5B97E
3D2AA33E
3D92A75A
BDAEDFE3
BDDA0EF1
3CFD16AA
BE249C87
BF02BD1C
3DF37ECC
BE1D48C7
BD74EED7
BE5C0548
3E49704E
3D3173A1
BE3560B8
BE595E80
BEB80948
3E20D9F6
BD6A0872
3E07BC56
3DAA4DF3
3BB2533A
3DC25CB6
3E0DFAAF
BE12FE39
BD03C7C8
3D8FDFA7
BDC01588
BE4DE2AD
3DDDF864
3E611B10
BE399263
3E288ABC
BDA55192
BE65891C
3DA48474
BE018BFA
BDAF7107
3E42FCBC
BDAA86EA
BE992669
BE82C007
BE184979
3E84DE4E
BDDAB5A2
BD3CC46A
3E48C4FD
3E04844C
BCE68EB9
BE2B6BB2
BC7D8642
3D644A3B
BECD3C86
BD38A39E
BE8809DA
BD883864
BDB61A92
BD6D61DB
3D1329B2
3CBA7A09
BDB32FC8
BE1FC206
3CD8D03A
BE422589
BD4EE605
3DA14113
3D4D702D
BDC332A0
3DB1499A
BE039F78
3D1356CC
3E07A6B3
BD9E2B1B
BE30BF3B
BC4045EA
BE9329C2
3DFB8FDB
BD9081B0
BD9E4A5C
BEB7940F
3D1C93FC
BD301F40
BC1BCEF8
3DE5E57D
3D0E7FE7
3E22517E
B79DD304
3E008562
3E97F5C6

