BF107A40
BECCF19B
BF1D8878
BF09B7C2
BEAFD6BD
BEED29F5
BE7018AD
3B40913D
BE55CF2F
3EED0BC6
BE807ABE
3AB13C3C
3DA6EAAB
BE555788
BEDC620C
3EBE6B07
3D280D9E
3DB1D2D9
BDBD454C
3D1FE03C
BD48B576
BE3AE82B
BE5721D3
3E7021DC
3DEC7100
3D61EB9C
3D9C8A0D
3D03352A
3B281C1B
BDA9F9A6
BE2FFB20
3D04CB8C
3D646243
3DD665F8
BD3ABEF3
3D532BAF
BDF85899
BD43BE3A
BCC0E7D0
3DF38DA4
BC9CD7A2
3EB01B87
BD882018
3EC59EEE
3CAF35C1
BD3997C0
BD046FA5
BE1C037B
BDBB750F
BD541BDF
BDCCBFFB
BD10011B
BCB46720
3C40A6DF
3D28B474
BDC3E765
BD91388D
BC45BA8F
BC49C769
3CF8CBA3
3E2DED69
BCC6F40D
BDFEE7D6
BD86A0FA
BDF08330
BDD1B9F5
BE90391C
BDD86274
BE072813
BDBFBDBF
BBA8CF15
BD8F1A9C
3D932391
BDC46379
BE72DDEC
BEACD8D2
BE211EBF
BD20ABAE
3D90E98F
3DDD47BB
BD3793B1
BC45CFEB
BE158F33
BE9F19EB
BDE32166
3C608253
BCF1DC11
3D1E010C
3F1DD5DB
3D61A358
BE162B0A
BE509D01
3E63ACAC
BC8ADB76
BC8FEC57
3DD620AD
3D8963C2
3EE91EC3
BD9E41A8
BE2B2CAC
3DBF7398
BD54227A
BE2CAF44
BCD94505
3E20AA74
3E951E6E
BC122054
3DCF20BE
BE2802A6
BDE8FED1
BE832A1F
3DF34433
BDDA48FF
3E791E8D
3DB2EEDB
BE5BDEDB
BE495755
BF294B62
BF23BF93
3D71A3EA
BE0050A5
BFC0D1B6
BD7D221D
3D810900
BE7528DE
BF2E1B03
BF3B3A3C
BDE61A52
BDEAE99D
3D2C7149
BB558BE8
BE24976C
BAE0E844
3F4B456D
3E38267F
BE6E04AB
BE0E5970
3D7AFBD6
BDA27245
BE2E6FB5
3E07F5DA
BDAC2BE0
BDF635AF
BDAC2BD0
BE112D26
3D87FA7E
BDF6B73A
BCE2D0B1
BD86A2C8
BDB1F519
BE4D65F6
3E476323
BDD326B7
BF12F457
BE39D493
3D62F277
BEC33DF6
BE2BF5B6
BE768ABE
3E6339B1
BE3CBEDE
BE9401D4
BB971A19
BE4E83CB
BD941950
BE958AF8
BE86ABC8
3E6D5718
3C8BAD87
3E8D7B72
3D953954
BE4BFA1D
BE7AD297
BECB4A68
BF0410F0
3E82B52B
3E1A71F8
3D29F029
3E1A5A74
BDD17558
3E996C38
BE63D46C
BE9051C3
BEAEFFCF
3D00F1FE
BD906452
BDCE1A02
3D007486
3E044082
3E820338
3EF41C8F
BE68046F
3DE31200
3DB5F601
3D3699D9
3EDEAD40
3DC174AF
BE6F8EB7
BE32A6B3
3E23CAFF
3E42F10C
3D2C85E3
BAB7C8CA
BD53941A
3DAA339A
BE797C9C
BE71B284
BD2BC148
BD6C89F4
BDF2D21F
BD284FD2
BDB3BBB4
BCAB966F
BE829D23
BD596BE6
BE030927
BDACA642
3D2012B6
BE24630A
BE282775
BE2B62A5
BE06481F
BDB2D07E
3A80D6A9
BE117AFF
3E415F76
BDFAA917
BD71D15B
BDAF23F3
BCE02463
3E9D62C6
BE4719D6
BDF16992
3D82678A
3D693317
BE25911A
3DAEABF1
3EC1213A
BD5DC4D8
BEA658C7
3BEDB0C6
3CA2D675
BE1DA864
BE3A1FE5
BD39037B
3D81A214
BCB2FDDB
BE9A96CA
3CC9CC7C
3D887DB8
BD0B3936
BE3C1F5E
3C833627
BD23A138
3BF6FABA
BEC3A98D
BDF03450
BDB30F92
BE5EADD9
3CB227C1
BE07296A
BE26B50F
3E27F9C8
3EA4972A
3E5345E1
3DA0D7EC
BE8C1AFD
BDD64C1D
BE63784A
BCD9A418
3D37AA5A
BE3BE8FF
3E678C6B
BC12EC13
BCABCCAE
BD729B2E
3EB43F46
BDD3BADB
BE86DB7B
BED9666A
3D805C8C
BE4D6460
3E58914D
BE0EFCA9
3ECEC832
BEB3C8A8
BEAE074D
BF2CA3BC
BE219C57
BE6E6D0E
BF15A630
BF0176D6
BEAB3E80
BE2D98BE
BE4802E2
BE964BC8
3E2EAA48
3F0119A2
BE8FECA8
3E24D215
BCC2805C
BE2978F0
BE631DFE
BD22F132
3E1D8C35
3EC222B9
BEC075DE
BB737127
3DDE4137
BDFE710A
BDF6669E
BC07932B
3D901E75
3E594901
BEBEB20A
BC9F65D4
3DDD2043
BD7401EF
3BD5A4B2
BCF930A4
B86815B8
BEA7A258
3DA5255A
BEB2862D
3EC231C9
3D2861D2
3DBAFEA6
BDF66C4B
BCDC14AA
BDDC7DF6
BD75B6CE
BEA8A50B
3E4AB59B
3D98FAFC
3D39D627
3D67BF1A
BC04043F
BD425607
BE52E6D8
BDC7FF72
BDBA5BD8
BDC8B9E9
BE0554E2
3EF28FB5
BD68E974
BECD166F
3C40222A
3DF203FC
3DAA7491
BE1FB17D
BE14C195
BE89E5BB
3D5AFFAE
BE077931
3EBAFB07
BD86D04E
3E293668
3DC714EC
3B06F6EF
3CE8A076
3CAC5797
BE8D02EC
3D42AF43
3D0E3913
3E5AEDF4
BE18F1BB
BBC81F71
BE0B8C6D
BDC35DFE
BE87AE2C
3D3E7458
BE135214
BE551141
3E0E0343
3E2E4CF8
BDEA6A09
BDC3E1EC
BE2ADFD5
BDD9C12E
BE725BC1
BE0FE973
3E0CC3AB
3E5ED185
BE0D7008
3D01B76F
BD860F0C
3E56230D
BC106F16
BF42984F
BE444E85
BE0B20F0
BC0FA35B
BD4533BD
BD48FB84
3C8C9911
3E081E41
BF6C3EE3
BE0C2B97
BB23EC94
3C4F358F
BD0CECEA
BE3D1304
3E237613
3C990D37
BEF4A3D4
BE6C6A18
BDF63C3D
BCAF51F8
BC8A6E1F
BE8CC555
BD799C9E
BDB71413
BE1ACD89
3E2E1479
3E71A2DD
BCBE71AD
3F22C9A3
3D0F4B66
BE291C45
BE9379F6
3DB61871
3C9DCBCC
BCFDBBA1
3E0575C9
BDAD4B77
3E5C1D81
BD24CC2D
BE36CE3A
BE2737B8
3B753EE6
BD2CB4B7
3C47051F
3E331D81
3E4FFD8A
3D3B7CAF
BDDAA000
BF20D139
BDF378C9
BEA3019D
BCBB4442
BDD4C15A
BF3CE7FD
3D853746
3DBC4E79
BF7FCDA4
BF69CA1D
BF69EB97
3C9FC9AA
3E9D82B4
3E7794F1
BE8474F2
BE9C6688
BDF14EDF
3E319EA2
3D49C98B
3E5C635A
3D4EA5F9
3D8D3F95
BE68E01C
BE7CE1B6
BE632B82
BE026C76
BE3630FE
3D365F8F
3C155217
BF88C81E
3D5DA10A
3E7131E8
BC0145D2
BE273C41
BC4DA9BB
3C9DDE0F
BDC335BF
BF700E5B
3BD5F4E9
3DEC9B60
BC23758B
BE840317
3CD00499
BE0801DD
BD75D582
3CECAA05
3D454DB9
BB6911A3
3E50B0A3
BDAA5F7A
BDBE736A
BDA92591
BDE08E0F
3C8F5150
3DB97DF4
3D5011A2
3E32B53A
3E8728E1
3E098344
BE0A5FC3
BE0FB8C4
BDABB2AA
BD5C4093
BD19F035
3B02A84A
3C1A513C
BBDD2DBE
3DC35D55
BD7C6F10
BE45F762
3DE1DAD5
3E13D525
BDEAD6F0
BD562B62
3DB10C80
3DA5BE19

